[PAD]
[UNK]
[CLS]
[SEP]
[MASK]
!
"
#
$
%
&
'
(
)
*
+
,
-
.
/
0
1
2
3
4
5
6
7
8
9
:
;
<
=
>
?
@
[
\
]
^
_
`
a
b
c
d
e
f
g
h
i
j
k
l
m
n
o
p
q
r
s
t
u
v
w
x
y
z
{
|
}
~
##a
##l
##s
##v
##o
##r
##b
##e
##u
##t
##m
##i
##c
##n
##g
##f
##j
##y
##6
##k
##d
##4
##h
##p
##x
##w
##1
##8
##z
##9
##5
##2
##0
##3
##7
##q
th
##in
##er
##ing
an
to
##ou
##on
##en
##at
##or
the
and
##an
##ed
##ll
##st
my
##el
##es
##ot
ha
##ea
be
##ve
it
##it
##om
##ut
##et
of
##ow
##is
wh
in
li
##ay
me
not
##le
is
do
##ar
##ver
that
##ke
have
##se
on
am
##ic
for
##ust
st
##gh
but
you
##re
fe
##id
so
just
##ly
##ld
##ant
##as
##al
##th
this
##ess
##ion
feel
##ent
##ith
##one
go
##ill
with
any
##ep
##ri
sh
##lly
##ch
##ck
##op
like
can
##im
##ere
want
##ght
su
ab
som
was
rea
get
##ould
ever
al
wor
##ear
##ir
##out
ne
##elf
at
##fe
or
kn
##ct
##ce
all
##ore
##au
we
know
##pp
##nd
every
##ad
out
##am
##od
lo
##self
as
about
what
##ur
##ter
if
##end
##ain
life
##king
no
up
bec
se
myself
##ry
##ress
##ally
##ight
##ause
##ro
some
##ven
##ake
tim
don
been
when
fu
how
because
ex
they
re
are
will
##hing
pe
##ate
now
peop
people
fr
im
con
even
thin
day
com
di
##thing
time
##riend
dep
##ead
ch
he
po
really
##il
##ble
depress
##ind
would
##ation
##way
had
thing
##art
##ive
##ol
she
one
##ge
##ough
##ers
hel
##xi
##ast
##ack
pl
anxi
year
help
mu
see
friend
going
##ely
from
fuck
##ving
there
think
de
##ong
##nt
her
##ety
who
happ
##and
its
##ul
somet
them
ag
##ra
##ide
##not
anxiety
did
much
cannot
##ting
##her
te
more
##ff
##us
never
over
your
only
##ous
pro
##ought
has
being
##ist
mo
too
fa
car
try
##ound
en
##day
br
could
af
work
why
depression
than
##ap
ve
feeling
need
thought
mom
##um
good
tal
##ort
oth
bet
int
ma
friends
does
pr
things
end
way
anyone
back
make
##eal
sp
then
got
##more
anymore
##os
##ways
##ci
start
ar
##ish
say
something
##ame
cl
anything
years
dr
us
jo
##ily
un
##un
##all
##ine
suic
by
better
everything
still
##own
someone
##int
always
##hh
here
hate
##ue
nothing
kill
tr
head
off
sc
thr
har
##ice
bad
##ose
gu
stu
man
##mp
after
sa
##ie
exp
fucking
die
co
talk
other
##ek
ke
##ip
##ity
again
##ome
##our
loo
##ure
##ried
mon
##ms
pers
dis
pain
##ment
right
fam
ad
keep
take
long
week
##ery
##ig
##reat
##ired
##ick
shit
tell
rel
act
him
##ually
person
hop
##ty
live
##leep
##other
family
##so
last
##ab
##eri
##ody
should
everyone
str
sin
##ag
hard
stop
dont
love
att
down
##kes
job
through
id
##able
lea
el
point
may
le
tired
lit
gr
month
very
where
##ade
care
into
wr
##ful
wa
##ile
real
since
##cc
sleep
getting
also
ur
##ass
hear
else
sch
##ich
doing
happy
##fore
##ool
find
##be
bl
happen
##iv
lot
##oy
##ug
before
comp
##ffer
##iz
hur
having
##ning
par
##ath
med
##ect
##ated
today
alone
most
wish
ther
which
trying
und
##ease
##ents
around
##ations
scar
away
##ard
ment
cont
school
##ft
##ond
well
few
##ence
fir
##ating
##ang
were
##ite
##less
suicide
days
##ies
depressed
tw
under
first
##ved
fin
##son
##ever
post
night
hope
##eak
let
their
##orm
look
made
##em
##ys
hurt
des
read
thoughts
qu
sad
therap
##tle
app
##ently
ta
cou
##ions
heal
##mo
##est
part
##elt
reason
these
self
told
ph
##ber
enough
world
tried
maybe
makes
mis
res
##irl
rec
hi
please
fo
while
ago
started
##age
worse
felt
health
girl
same
feels
home
done
##ace
said
em
new
supp
call
##ness
##wn
living
thinking
give
many
kind
thank
##ach
proble
##body
mind
ro
sure
actually
##ss
acc
bu
ask
his
ill
months
old
best
##hhhh
##mpt
cry
wanted
little
##xt
dec
come
hour
rem
scared
sometim
past
without
ive
##oo
suicid
##ance
##hip
##ves
went
mean
sit
put
##stant
pret
sometimes
parents
underst
suicidal
sm
though
##ically
op
left
ll
mat
soci
ho
able
##ha
##wh
##ugg
mental
own
##ten
##ling
##urn
compl
##ree
unt
##read
experi
ok
understand
norm
ins
##ably
##are
lost
fail
fun
sl
##ept
deal
wrong
until
didn
heart
imp
cant
##ready
bit
already
##og
bel
those
##most
constant
our
##dit
almost
strugg
stay
times
cr
##fect
##ild
ter
worth
two
##00
##ord
sor
wat
plan
fl
##ward
prob
matter
might
another
used
pretty
##ical
bed
adv
##ple
##osed
lat
pan
making
anxious
place
finally
normal
suffer
##get
probably
aw
##ctor
sorry
##friend
sy
leave
hand
##act
relations
high
relationship
##ud
complet
##ange
##eam
##ying
##oney
seems
##ult
##ac
##sy
##mor
sick
brain
min
exist
attack
money
##ood
##ouse
emot
##ise
great
differ
comm
mor
sur
##aa
yet
##iting
##onest
panic
##eless
inc
death
honest
##per
once
hell
##sing
next
body
ear
##na
doctor
per
##ia
seem
##oth
guess
##iness
cons
lon
others
looking
stress
##ember
house
social
##ced
##rible
##erally
##we
taking
rest
gen
inter
therapy
working
hours
belie
che
##ather
##ual
turn
##ger
##ens
iss
show
amp
medic
fear
##ire
##ible
20
such
doesn
exc
rep
coll
break
##vent
play
soon
bro
eas
##ib
es
##den
remember
morning
bas
sub
god
whole
dead
sim
ext
gone
##ching
stup
pre
##ied
##ken
##ither
pass
talking
##ict
ap
##ird
stupid
close
kid
weeks
list
big
cut
mess
##zy
conf
##umb
##fort
##ues
least
literally
wake
##sych
ass
##ously
cur
change
##ense
therapist
dad
realiz
stuff
recently
gi
##pe
psych
advice
alive
wond
found
##ush
##ces
dri
##joy
won
support
ob
enjoy
sec
wonder
inst
bor
different
##ary
##sed
okay
guys
##cer
##ix
either
##red
##uin
nobody
child
##vi
constantly
et
everyday
problem
##ma
idea
problems
completely
##ped
room
eat
wal
##lt
fut
sk
took
cra
##ital
honestly
believe
idk
##row
class
fill
seri
##vers
##ier
ton
worry
hurts
resp
suck
que
##ner
etc
future
red
reg
weird
yourself
fight
face
colle
happened
phys
##led
emp
##ink
sympt
symptom
hor
experience
##ction
##raid
sing
##ills
college
boy
##line
##hhhhhhhh
poss
mot
##ory
sever
low
situ
10
tri
afraid
stud
deser
##if
fall
##ount
##erg
##vel
emotion
##qu
bar
saying
worst
thanks
use
##ided
##app
hang
run
atte
bur
came
crying
each
couple
ey
##erest
lonely
minut
sw
less
pay
word
##osp
become
nice
hit
quest
breat
hum
##ign
##med
##rem
met
abs
##ark
move
telling
fine
##ail
feelings
hosp
cho
dam
side
treat
far
##ans
tomor
##uring
interest
tomorrow
beg
worried
single
hospital
ent
wants
##les
##uck
second
gets
moment
longer
hold
##ell
small
##oint
issues
open
guy
contro
##where
##olog
ner
tra
loved
attempt
killing
listen
contin
toget
together
##ract
pu
curr
sound
motiv
##ately
##lf
coming
deep
expl
##cus
##ester
cau
experien
spend
extrem
due
##rist
##gn
##agn
struggling
##ump
asked
##ase
##ew
##ates
bring
miss
girlfriend
later
stuck
la
##sit
##olut
wast
##fu
usually
cop
add
cal
disapp
mother
ty
free
ant
##cially
both
##ked
medication
situation
##ative
pres
##cri
check
gon
decided
posit
##sel
often
deserve
sex
##oid
lear
##oud
absolut
fact
full
strong
##ned
suffering
diagn
called
symptoms
dream
##ject
##ave
starting
instead
food
##az
mus
##uly
##ons
during
ang
count
##co
says
anyway
fucked
control
##bb
##ider
phone
lau
chang
##ergy
reading
oh
seeing
inside
##llow
##ash
chest
dist
ruin
##up
isn
short
##eaking
super
comes
wait
meds
supposed
##ert
av
expect
basically
##ife
##ock
##ook
wan
lately
energy
##ont
horrible
##ched
##sh
didnt
youn
sense
hu
half
mar
exha
event
cour
spe
grad
filler
haven
slow
tonight
##ny
cause
ready
pea
##gest
##ffic
needed
##erable
##set
helped
def
##ments
bus
wom
##ho
##mm
uni
exhaust
goes
##ility
happens
boyfriend
share
opt
knew
consider
cat
30
barely
test
empty
gotten
ir
ind
whatever
eating
yester
##ited
meet
miserable
yesterday
dying
##bt
stand
peace
neg
comfort
state
##ention
##irth
bull
##cing
truly
wasn
numb
##cle
near
espe
fix
yes
stopped
especially
birth
vide
step
##ular
entire
pur
set
age
ef
waiting
##ping
terrible
apart
possible
broke
extremely
sist
##ames
##sw
##vie
human
laugh
##side
question
guil
commit
blood
##pl
happiness
##order
yea
lose
gl
currently
##oup
sol
##fully
imag
however
##ised
motivation
inf
##ident
##ime
knowing
died
inv
drug
##etic
##gr
ret
explain
da
breath
angry
tea
##eral
lol
gonna
ann
dog
##used
crazy
sort
##pped
##ee
tou
story
accept
absolutely
group
minutes
##ret
answ
##ank
sud
exam
sucks
conv
late
rather
effect
gave
##oke
hey
sudden
##its
losing
##als
wanting
whenever
cancer
reddit
course
##use
continue
online
##ize
diagnosed
cle
saw
##aaaa
fast
##ape
damn
brother
eyes
top
##inking
vis
##cess
intern
path
##ming
##ants
dark
cares
burden
##ial
couldn
ending
shitty
##wards
clean
forg
##ives
ones
write
words
15
desp
vent
quite
##hol
outside
##reci
personal
lives
##ode
seriously
sister
##air
beh
notic
forever
follow
nerv
pills
easy
del
##ted
worthless
watch
illness
##ities
esc
nervous
luck
thats
forward
##ses
appreci
press
fig
asking
drink
mist
##rif
trau
focus
##ween
walk
na
failure
##ors
diffic
dest
mentally
bother
convin
mid
ign
seen
leg
##der
trust
##selves
push
sign
kids
yeah
behind
18
text
realize
##gg
writing
##ointment
ep
disorder
import
struggle
weight
succ
handle
ref
##iat
##com
calm
bea
lay
sn
music
bo
cy
hot
sleeping
eng
useless
##ax
##uct
mood
drop
wanna
must
ended
spent
positive
##nect
attention
eventually
##rew
born
##pt
##ibly
giving
annoy
birthday
knows
broken
##cial
attacks
det
pie
##ault
edit
upset
##usive
forget
aff
##andom
clear
wondering
difficult
##owing
doesnt
important
##mit
three
taken
##ism
physical
amaz
##whel
hy
convers
ed
prof
failed
watching
success
##ork
overwhel
##hhhhhhhhhhhhhhhh
##iss
light
worked
hopeless
quit
psychiat
12
##bs
between
##ively
begin
reality
happening
playing
##ote
random
alco
moved
alcohol
sitting
##ung
cold
dealing
physically
helps
maj
##ah
meaning
ac
cor
##ious
##oss
ug
##ph
talked
quick
cu
ser
war
selfish
##how
true
bot
father
##ending
emotions
smo
weak
##ude
severe
major
##vid
amount
stom
means
games
memor
##ession
terrif
video
hea
realized
drive
obvi
perfect
given
young
##by
reach
##ized
##200
tot
surv
negative
leaving
daily
stomach
x200
scr
gun
sat
awful
early
answer
x200b
##raw
cert
main
trans
buy
epis
fat
painful
pol
ugly
game
hes
heard
sadness
rid
woke
##mg
chance
##ilar
harm
none
val
##ustr
water
defin
kept
ways
##unch
avoid
##tt
anybody
proud
##unk
fighting
except
cope
pat
mine
##erc
affect
##aged
##ren
##ne
somehow
finish
##lling
keeps
16
100
date
vo
##ether
decis
issue
24
##vor
##br
front
serious
note
exhausted
ach
##igh
general
##ian
dou
jump
pri
allow
amazing
##pect
sug
spir
huge
harder
slowly
afford
case
mad
tip
wife
##gger
##eas
##arr
becom
art
imagine
noticed
turned
##rage
trigger
sent
certain
remind
name
connect
##istic
account
simp
teach
bat
##aining
emotional
country
hus
##dle
grand
impro
hello
swe
##ef
##time
funny
similar
##ane
posting
looked
win
reasons
fault
##epress
asleep
emb
antid
prop
healthy
internet
dumb
##iday
purp
eff
##ears
antidepress
hom
##man
##ared
using
##band
mem
hurting
type
19
summ
easier
gradu
##lic
##ient
mult
themselves
speak
drinking
bc
occ
pick
##right
commun
prescri
pathetic
##oc
##eng
anyways
along
##ross
exact
coun
result
function
changed
escape
##ts
##ets
##eth
sens
contact
regret
psychiatrist
husband
##room
clos
hoping
relationships
skin
piece
definit
lack
weekend
partner
suddenly
aut
opp
takes
beaut
driving
concer
wouldn
against
looks
cow
##ured
prom
relie
simply
gives
teen
works
drugs
##cy
##dd
kinda
##view
##hood
stra
effort
##ask
somewhere
exerc
frustr
17
lazy
option
##ser
form
whether
disappear
sounds
book
trou
appointment
peri
isol
moving
joke
period
##itch
overd
society
ev
order
##ained
earth
genuin
##medi
mention
woman
several
lead
##but
black
guilty
despite
ben
bab
##bed
safe
waste
genuinely
##eams
star
hobb
beat
towards
##ower
immedi
needs
keeping
summer
univers
temp
wont
multip
straight
fake
##loy
badly
girls
complete
existence
shower
sho
waking
mostly
definitely
##unt
killed
running
##ances
forgot
chat
poor
adult
theres
putting
hanging
##over
##come
lie
##down
pressure
terrified
##to
##gress
meant
helping
throw
conversation
sou
##ics
send
##pr
##ushing
covid
level
build
##velop
jud
jobs
##tern
minute
suggest
purpose
drunk
experienced
addict
tit
##rect
abuse
joy
fre
ruined
cycle
##ones
##ures
middle
pict
goodby
##mat
##ged
depressive
stressed
learn
destro
multiple
hair
char
simple
treatment
##ined
disg
##ific
cre
##iful
older
bored
ignor
university
yell
hopefully
##shit
lik
somebody
pointless
ra
##ings
shut
accident
201
##comfort
obviously
25
dreams
cool
prod
relate
desper
planning
heav
er
kick
notice
hands
emotionally
rant
##ppy
develop
incred
worrying
pull
nat
thro
partic
smile
eye
14
##ides
tor
irr
figure
till
process
restless
study
breathing
embarr
fit
pot
slight
##reddit
trauma
tips
htt
thinks
respond
falling
choice
11
##ines
excited
passed
http
##lo
##ially
anywhere
conc
disc
childhood
bullshit
bath
listening
comfortable
##emp
isnt
##ices
offer
21
posts
doctors
distract
embarrass
non
##ym
became
fair
trapped
beautiful
goodbye
finding
qui
subreddit
cried
##uc
##aught
##urance
deg
disgust
##xic
##any
interview
psycholog
manage
##ging
##ffe
comment
flo
haha
goog
relax
career
twit
scream
trouble
incl
caused
##uth
abusive
antidepressants
anger
##though
lonel
episode
wall
##ster
throat
cri
creat
##rea
##ii
freaking
save
repe
gra
youre
space
respons
nearly
voice
title
pop
questions
meth
song
##ak
##cd
##here
lived
although
##amed
term
walking
decision
proper
##work
plans
confused
women
exactly
scary
profession
hug
##anger
finan
personality
likely
est
##hin
##itive
##ising
imposs
num
express
doubt
##my
##ories
havent
sun
everybody
totally
##lish
forced
recover
experiences
13
##io
##ition
interact
##ope
pray
##cious
parent
cir
wasnt
hole
##fer
##amp
loser
medical
quiet
ah
sil
friendship
admit
appar
message
annoying
impossible
reject
convinced
baby
dating
mou
##kk
neck
##ational
male
tells
interested
immediately
wear
##ther
headach
related
four
failing
power
existing
repl
mistake
loneliness
gf
mir
##akes
##no
##oooo
##ength
pa
##ishing
within
##ability
courage
pub
busy
becoming
22
nor
##ison
pls
classes
holding
return
tur
bitch
apolog
##omm
loves
grade
syst
apartment
fi
known
lock
nowhere
moments
block
easily
hobbies
mouth
hates
tears
##bo
door
blame
fur
intr
##ages
example
improve
cap
toxic
##ution
fell
comments
spot
missed
staying
cutting
regular
student
method
city
lying
sem
crush
##aly
dread
grow
breathe
achie
exercise
soul
tend
##of
##ron
##kward
area
spiral
##earch
favor
card
choose
effects
##uctive
vir
##ik
##ateful
degree
hung
boring
special
survive
son
progress
descri
gre
hol
twice
awkward
delet
appreciate
incredibly
fant
men
freak
nightm
aware
common
system
##tu
loving
draw
##aw
##ule
posted
guilt
ele
loss
uncomfort
seemed
appreciated
mod
##ram
bes
rough
mum
cared
ocd
##ror
enc
present
overwhelmed
bott
number
##iot
beha
regard
considering
##idence
unable
smart
obs
children
english
gt
##ike
truth
rock
##aces
glad
air
force
##dition
attempted
pract
##ceed
seek
caring
brought
news
destroy
likes
##ended
unless
wrote
inform
successful
homeless
uncomfortable
task
##ele
cloth
throughout
earl
anti
speci
quickly
heavy
23
burn
rn
##que
##ential
shar
everytime
letting
accom
40
pts
tv
teeth
starts
disease
hearing
media
sexual
apparently
bunch
##ries
opin
touch
##aaaaaaaa
relief
ptsd
##iny
##orn
shot
movie
learned
married
##hhhhhhhhhhhhhhhhhhhhhhhhhhhhhhhh
public
##ins
breaking
actual
50
mil
##ency
itself
aren
normally
skills
causing
encou
col
din
tho
rece
coo
prep
younger
prescribed
##for
recomm
calling
current
missing
reply
loud
rt
##pping
ash
##olar
company
invol
allowed
line
##gin
stories
fully
dem
overth
arg
drown
himself
road
breakdown
teacher
pill
##book
store
##ensive
mistakes
further
clothes
sle
##icking
whats
##ortun
insurance
medicine
sched
##ivity
counsel
opportun
includ
earlier
##tain
office
##iest
##izing
struggled
wasting
disappoint
hide
mill
vi
cover
party
serv
##esh
couldnt
managed
specif
##ric
train
##what
##fortun
trip
memory
memories
##ify
experiencing
coping
mass
##onse
unha
awake
turns
tough
community
twitter
##zz
town
sha
dev
strength
bathroom
##iling
police
ble
bought
##ove
lif
##odes
##ume
unb
##ager
##ived
flu
##form
anim
liked
youtu
helpful
debt
confidence
possibly
lucky
closer
##mas
##ium
##athy
respect
grades
occas
##ero
nothin
prov
carry
coward
fantas
##ering
##atic
overwhelming
floor
ris
##bers
belong
difference
five
gri
wind
##ued
upd
christ
relig
pretend
##while
response
detail
cuz
unhappy
vac
weed
arm
overdose
picture
obsess
herself
discus
appro
wasted
solution
convince
tempor
holiday
##ks
white
shi
intense
monday
decide
interesting
rac
wow
doc
reached
chron
unfortun
ignore
disgusting
daught
ver
##wise
nights
matters
extreme
bullied
visit
ca
##eem
##he
stre
surpr
biggest
supportive
educ
bf
##bit
ends
cost
attract
final
treated
##ney
bag
wrist
##ination
enter
##osis
quot
decent
rent
tech
##osing
grateful
travel
behavi
pun
tight
goals
coffe
extra
previ
situations
accepted
traumat
ly
mark
suc
willing
insane
ut
loc
scen
otherwise
lots
favorite
rap
##ub
##now
##arily
shes
usual
paran
shoot
dinner
coffee
zero
##itten
##sec
##amb
places
##iew
learning
beginning
finished
professional
besides
accompl
ball
cent
fing
jour
shop
stressful
00
dra
lar
mut
onto
growing
nerf
spending
particular
youtube
doe
##oph
##aper
uns
priv
bip
pushing
ss
sea
view
##sted
plus
env
calls
##gram
achieve
sib
friday
project
shouldn
access
understanding
walked
jeal
rate
##esome
##east
bey
goal
shame
##usion
unf
email
perman
crap
slept
sibling
hid
threat
stick
abused
above
alot
painless
ground
planned
clearly
building
natur
psychologist
bottom
gym
lang
##ring
##yy
##issed
##idge
stopping
idiot
desire
qual
surr
exhausting
ashamed
bear
lt
comput
meeting
battle
bipolar
jealous
danger
gar
hist
##ev
##fill
react
##ili
pleas
urge
letter
##ledge
employ
##ificant
wel
##hd
##zzy
##verse
feed
##rious
shake
##aster
appear
paying
edge
pound
##night
##go
aband
necess
lower
hyp
results
properly
beyond
ran
##oft
alright
requ
ide
cru
wonderful
filled
business
repeat
chronic
accomplish
fire
link
##soci
misery
studying
##hole
benef
bi
pack
vict
somewhat
basic
position
changes
catch
information
unfortunately
26
bra
pet
program
screw
intrusive
succeed
##back
##eld
org
dram
unc
acting
##ibility
typ
creep
circ
ahead
occasion
abandon
hated
rout
var
##mber
##ences
log
condition
increa
law
pushed
meaningless
turning
bills
##dr
##ened
insec
arms
##male
ideas
began
seconds
causes
disappointed
daughter
hat
pen
dose
##icul
upon
strange
suffered
202
esteem
headache
##uu
##ww
feet
##ribut
##hob
laying
across
judge
langu
rom
ya
zol
##ull
##pm
##ining
female
remo
happier
surg
confident
absolute
options
smoke
tort
semester
history
net
##ral
##ument
strang
foot
excuse
cripp
update
techn
zoloft
##uary
depressing
phot
figured
frequ
recommend
gho
sal
overcome
##aps
prot
medications
members
ignored
shaking
computer
gut
gay
wed
##eable
track
prevent
prefer
changing
value
describe
cele
odd
tiny
##ta
reass
everywhere
comb
relat
blank
cris
conscious
messed
dropped
isolated
vacation
temporary
nar
ult
instant
theyre
##une
passion
swear
##ground
shift
##me
##ening
nose
trash
avail
considered
smoking
##min
##eric
pains
attempts
tests
slightly
google
bleed
education
boo
den
land
six
##dom
brush
##aging
##ivid
medit
sweet
frustrated
##ps
##itable
unemp
adhd
socially
snap
total
risk
ess
grew
tast
team
##ze
infect
withd
offic
stayed
productive
paid
fil
##ox
##ipped
##ony
##ays
##entially
asshole
facebook
aver
##xap
lim
doll
ability
speaking
refer
concern
mg
rain
ugh
wishing
##isf
dizzy
box
hyper
200
pand
direct
lexap
written
awesome
minim
bottle
including
million
##filler
unemploy
lexapro
##vey
##arant
##the
rev
##mph
brings
desperate
desperately
potential
viol
surround
boss
##uing
##lled
clin
unl
cute
hotline
mild
rope
ten
ward
##ship
##res
##ender
background
apply
understands
generally
passing
graduated
crisis
mix
tb
##ises
chem
##uses
bridge
laughing
valid
communic
opinion
average
paper
sep
##tf
##imate
##emic
research
crash
following
sensitive
kicked
developed
ride
sore
##ges
##pir
stable
impact
damage
cowork
screaming
overthinking
##land
##haha
episodes
opportunity
service
ideation
language
gas
pm
##inge
##lect
shall
shock
##chan
suff
sell
##ilities
dealt
expected
ridicul
surgery
bill
##eet
##ization
recent
redu
conversations
financial
schedule
pandemic
gro
nur
rar
tum
##tw
##ipping
sus
divor
depend
wouldnt
##astic
overall
contribut
##ogn
stronger
suggestions
financially
nightmare
discuss
cruel
hating
##bing
compared
curious
concerned
lad
ppl
yo
##bot
##ton
##ien
##els
##irt
knife
expensive
contemp
recogn
disappointment
checked
annoyed
becomes
window
ban
gain
lab
saved
pretending
minor
subject
enjoying
unbear
bright
dude
##kw
join
##cover
answers
warm
events
embarrassed
tick
ate
helpless
##ules
##apt
endless
bye
charact
dollar
contempl
cross
lma
pity
vom
##ered
##icle
stab
##antic
##chool
hopes
perform
consist
motivated
ruining
forgive
significant
correct
attractive
paranoid
fired
meal
uk
wer
##ese
wash
seeking
suppose
highs
pregn
hits
typing
lymph
cough
pal
void
##fl
reaching
diet
##ealth
arri
##ipul
hardest
leaves
complain
advance
universe
fatig
massive
siblings
celebr
withdraw
rarely
##par
##ares
neigh
deb
blow
##well
based
messages
secret
severely
switch
deeply
obvious
decisions
##load
available
bal
pus
##ball
##cr
##lex
##anted
##urs
agree
scre
throwing
relap
activ
##ached
terms
shows
forgotten
cas
kms
wtf
##ray
##yle
##erate
mechan
shy
##imately
##aming
load
closest
##ified
scenar
neighb
000
cust
sci
americ
hasn
manipul
talks
personally
therapists
videos
legs
promise
##fillerfiller
tbh
bank
dm
empt
led
##key
##iron
##aus
dire
held
##using
thread
discover
content
homework
below
planet
bigger
assign
street
utter
unbearable
rich
##bly
##mate
##ding
##ett
sund
evening
resour
watched
##ption
randomly
field
specific
racing
bp
##aim
##ior
##iver
##umped
unw
realise
silence
provide
previous
crippling
ack
vol
##iring
fresh
diss
active
struggles
crack
report
legit
satisf
member
destroyed
large
permanent
lmao
acknow
27
pc
##dam
##ats
aspect
##rover
mov
realised
tweet
roll
smell
opening
jumping
graduate
sensation
addiction
mirror
rot
##ana
sober
jokes
ident
deeper
caught
steps
mainly
patient
triggered
mentioned
environ
narc
dys
tl
##bal
amb
##aur
consum
interests
surviv
pati
delete
behavior
welcome
protect
camp
der
sake
tear
##omb
inj
##icious
##illy
##riage
reaction
poison
##erior
crit
##others
basis
swall
checking
diagnosis
standing
infl
particip
rejected
strangers
separ
28
##rup
##itude
imm
understood
obl
expectations
frustrating
drowning
movies
dent
gad
lung
##ront
third
##sts
inev
##ands
scare
ourselves
cheated
burning
create
hungry
tasks
circum
dro
##och
##ba
##miss
##ressed
bothered
prior
teenager
hatred
instantly
emptiness
btw
ni
pin
pissed
sear
sour
##oun
##roll
chall
intell
spo
hardly
mindset
fears
distance
individ
polit
picked
virgin
regardless
cook
garb
victim
environment
awhile
ba
gp
mask
##ru
##zen
thous
##arm
##ril
worries
weather
##uls
tex
spoke
actions
gift
encourage
counselor
mutual
routine
torture
##let
##pat
##ires
##ndred
fav
mag
closed
saving
##acy
showed
humans
##bbing
##airs
connection
pictures
friendships
wearing
traumatic
season
garbage
90
dear
nause
##nel
##essions
drained
higher
vision
venting
batt
books
nature
devast
surprised
unemployed
pussy
sunday
cam
etern
lunch
##iving
##yp
somed
neither
dece
scares
survey
committed
teachers
created
interaction
capable
##hhhhhhhhhhhhhhhhhhhhhhhhhhhhhhhhhhhhhhhhhhhhhhhhhhhhhhhhhhhhhhhh
local
hiding
organ
60
fool
nail
od
ori
xan
##light
##rs
##rease
##cast
##att
##ribly
fac
afterwards
record
goddam
object
pulled
sharp
particularly
romantic
dry
eid
session
##ems
lic
grown
scars
asks
grandma
approach
july
lump
##af
##erm
##ingly
##stances
among
##entr
actively
conte
genu
hitting
dogs
illnesses
raised
locked
ridiculous
fly
mel
vers
##ale
##bid
##ots
beating
init
mail
key
##icked
bully
sky
darkness
cleaning
regularly
custom
aug
math
naus
pit
rude
##een
##mates
##ches
proz
disab
swit
hundred
glass
irrational
narciss
genuine
bout
cure
lapt
search
##uh
##nes
##sequ
depressants
decade
deserves
opened
marriage
##gging
oppos
concentr
practice
coworkers
xanax
laptop
cous
dick
rules
##ator
##eap
##omn
##irty
chick
##ists
harming
blue
cred
entir
expecting
##ggers
reminded
blocked
individual
nausea
prozac
porn
rare
silly
##nal
##ka
##ores
fund
fuckin
intention
##ished
saf
flat
##aced
april
purs
despair
headaches
nightmares
christmas
drove
nauseous
ease
jan
mal
tab
##ker
threw
##inal
##oma
lift
##tered
fulf
refu
shoulder
attend
bless
paraly
fog
invited
perfectly
drawing
finger
direction
august
sept
wo
##ris
##ex
##haps
lov
##ury
##iled
stops
points
blah
topic
spirit
embarrassing
fairly
involved
animals
raped
##ambling
pleasure
pounds
various
infection
highschool
fatigue
bri
ping
pure
ray
rush
##iff
##health
##inary
fort
stri
##ains
release
url
appl
appet
assume
march
solve
sharing
religion
ssri
character
goddamn
cud
dan
dish
##ob
##ona
whoever
claim
##agram
park
insomn
assum
##ology
majority
accidentally
deleted
occasionally
taste
lady
fulfill
ec
nut
##gue
##just
##aring
##enty
neur
chose
factor
trick
funeral
muscle
iron
corner
satur
sweat
apologize
##aaaaaaaaaaaaaaaa
abandoned
opposite
mast
##ern
doom
atl
consequ
kills
phase
buying
flight
perhaps
realizing
triggers
irl
peaceful
prescription
recovery
caffe
resources
entirely
via
##ler
##oin
##mon
##cel
##onnect
habit
whom
aside
noise
action
played
exams
evil
staring
addicted
december
page
wre
##acc
##dy
inve
lied
stro
##epend
##ades
loose
afterno
blind
roof
panicking
sooner
laughed
pieces
heaven
periods
natural
insecure
ghost
chemical
activities
appetite
je
##face
##xy
##orting
##itating
##ute
forth
allah
chances
##ilt
defe
faking
arent
cloud
compet
emerg
smiling
holy
symp
brains
restaur
breaks
confir
warning
elect
religious
verge
context
caffeine
afternoon
fan
sen
table
##oll
##rd
##ux
##hy
##port
##zing
##eness
dos
##ashing
knock
loop
drank
perspect
stranger
numbness
affects
methods
argument
screwed
minimum
contemplating
pregnant
insomnia
80
june
##zed
##ina
##inating
toil
gover
##chy
knowledge
##amm
##urity
talent
prison
training
monster
##agers
sleepy
parts
subs
instagram
##viving
lowest
optim
info
antidepressant
hobby
yelled
circle
color
##hobia
saturday
ast
band
dull
kitch
rad
site
sessions
##like
##ole
##inging
gold
comfor
distant
betray
showing
promised
leads
yelling
offered
grief
wrists
journal
groc
squ
##ech
##pet
thurs
haunt
##reed
sees
clue
disability
flow
collect
eaten
independ
concl
details
journey
private
relatively
weren
bpd
origin
refuse
govern
kitchen
fed
mur
oct
wit
yall
##sis
##vis
##und
##otic
hab
limit
notes
##icated
stage
anytime
chill
##raction
##raph
clock
blur
##athetic
tons
boys
connected
received
frequently
essentially
circumstances
border
ms
round
rage
sending
wood
##rop
##pit
altern
##urb
##aint
plat
spl
##oses
unr
thrown
applic
surviving
20s
negat
texts
functioning
necessarily
##patient
september
atleast
gained
##inct
##itary
weigh
introver
couch
##ugged
greatly
income
increase
##bbed
##eeee
destr
bothering
occur
receive
counseling
benefit
2020
suffoc
favour
emergency
comforting
thursday
bow
ik
ps
ram
race
tall
zone
##ners
##hill
lies
atm
##tery
procr
faith
lasted
##izz
accord
insult
flash
begging
##hold
followed
signs
texted
winter
isolation
songs
animal
quality
##going
bleeding
credit
procrast
cell
rum
tun
##rin
##itis
sooo
teens
sport
clim
##hhh
lets
perc
remembered
assist
possibility
dreaming
speed
neglect
fixed
groups
affected
ignoring
googling
admitted
opinions
acknowledge
intellig
applied
perspective
cbt
nap
ped
rely
sert
tues
vet
##eed
##che
peoples
prove
breast
spread
lect
slit
##orders
##ension
choices
sexually
##coming
alcoholic
scrat
avoiding
certainly
skinny
freed
responses
naturally
dangerous
palpit
swallow
oblig
texting
license
january
tuesday
bs
jack
kar
lord
tiring
##vot
##rome
##gy
##fs
##kg
##itated
stat
button
spring
bedroom
differently
relieved
levels
product
volunt
someday
toilet
29
35
aunt
dun
ger
rip
tree
##bl
webs
##pper
##ama
price
##cip
worthy
surely
confront
enjoyed
tries
bringing
snow
benz
unfair
dramatic
screen
inevitable
searching
source
freedom
website
fol
ice
##care
##gen
anime
wors
height
manager
quarant
thankful
existed
##ibilities
roommate
countless
determ
shopping
brave
##raline
tumor
scenario
utterly
disabled
restaurant
ce
cum
nic
pul
##ober
##rr
fore
soft
reque
image
brothers
joking
uncle
disorders
##arded
sadly
##eaming
cheer
studies
useful
hospitalized
continued
huh
escap
focused
psychiatric
pattern
counse
popular
rejection
military
dollars
discovered
wreck
cb
lines
port
rab
rational
##ras
##ites
inner
stood
cancel
##aul
##ulation
facing
##adem
synd
breakup
##ological
maintain
##iiii
silent
regarding
prepared
guts
surrounded
##ochond
stroke
according
31
base
cig
cup
dirty
fal
kiss
mode
omg
til
##rain
##hor
hall
##etam
##ley
##cket
compass
stressing
##weight
swim
traffic
committing
touched
effective
aches
article
autistic
immediate
responded
discord
##iliar
drama
removed
officially
lovely
october
3rd
fle
gross
gender
pod
wound
##av
##cles
##inate
tool
##llll
##rees
shout
shared
##iment
allerg
cheap
draining
empathy
swoll
##ologist
cats
luckily
academ
##phone
prim
reminder
autom
slightest
disconnect
balls
photos
wednes
reassurance
mixed
communicate
divorce
science
government
sertraline
wednesday
cult
picking
sight
vul
##life
##fast
##otiv
web
exit
daydr
hasnt
##apine
##unction
thru
discomfort
##soever
resist
built
sometime
##acle
craw
voices
grandm
autism
teenagers
opportunities
specifically
fingers
meditation
directly
##rupt
habits
swollen
hr
jer
king
vit
vib
yay
##eel
##style
forcing
febr
alb
diab
aggress
unlo
shouldnt
kinds
root
budd
hollow
students
attemp
solid
hotel
terrifying
survived
sugar
frustration
##kkkk
##oooooooo
cooking
overthink
quarantine
february
bare
hous
rambling
sand
##oom
##ey
##mb
##head
##11
##inc
##eased
##itor
##alid
##odu
associ
whatsoever
noose
shell
agreed
shoulders
sink
attached
schiz
medi
resent
realization
pulling
laid
added
corp
disappeared
heavily
replies
fiance
recognize
ticket
safety
palpitations
syndrome
nast
pour
zomb
##ok
##kn
##hi
##hab
##erv
anon
##vember
stare
##antage
##ament
november
##road
plenty
##apable
needing
##ips
##ards
remain
highly
socialize
breakfast
##icted
invalid
explained
double
##pected
##butrin
responsibility
encoura
covered
drag
increased
##hobic
dentist
devastated
senior
compassion
bound
mount
ny
vacc
##list
##uk
##anced
sold
shape
##adays
nowadays
const
chan
mock
##ealing
##cies
insight
cream
excess
collap
instinct
humili
listened
sisters
sentence
judged
holidays
require
contribute
withdrawal
brief
consequences
invest
destructive
##ochondri
vulner
2nd
au
bump
cake
san
ting
##ios
##col
##ga
##gun
toll
##etime
abdom
ord
##ada
frank
chore
##ils
mole
mach
spell
gotta
clot
guarant
##beat
wellbutrin
desk
incon
ears
##italop
continuing
noticing
refused
engine
adults
destroying
concept
lockdown
hypochondri
unwanted
borderline
grandmother
attempting
45
500
99
dar
dress
horm
mas
pets
sigh
van
##val
##vable
thigh
##oned
##onia
thel
##stance
inn
lifestyle
ups
congr
dig
##uled
downhill
parking
schools
##lessly
gener
sucked
smallest
court
beauty
suggested
disgusted
demand
previously
unsure
techni
encouragement
battling
sympathy
murder
dunno
false
album
fm
ig
jail
jyp
punch
rape
wip
##rom
##ience
##fic
thus
##arett
butter
##rest
##epting
##ading
seven
max
harmed
wage
materi
complaining
damaged
humanity
hopelessness
teenage
remove
##kwkw
critic
concentrate
anonym
inconven
jes
uh
upper
##aff
##gic
##ky
##atory
fever
##nothin
workers
pred
wished
tax
decl
puts
believed
##nerf
presence
bullet
setting
faster
deterior
##bsp
hesit
closet
weekends
exercising
troub
necessary
nurse
vomit
survival
##otivated
##italopram
cash
nbsp
tied
##nn
##function
tooth
##enge
##isms
##reh
##iles
friendly
truck
heads
sabot
famil
ideal
appoint
crashing
burst
continues
transfer
produ
psychological
responsible
improvement
freaked
increasing
ultimately
concerns
shocked
reduce
##flix
arrived
mechanism
campus
version
chicken
optimistic
independent
split
vulnerable
dy
eh
fought
##ec
##eur
##fuck
thy
forum
fellow
##ldr
##rase
manife
lean
reads
hire
accepting
host
bitter
##ditions
advantage
incapable
crave
series
distraction
marry
deliver
quitting
##renal
isolate
shoes
raise
introdu
miles
market
center
netflix
cousin
fortun
favourite
cigarett
nasty
jesus
binge
ect
egg
gather
ki
mile
##wat
inpatient
chap
hadn
fucks
agony
brow
workout
veget
goodnight
intent
dissoci
addition
adrenal
activity
exists
extent
assault
cured
driver
address
questioning
invite
despise
profile
accounts
ordered
beaten
incredible
distracted
interviews
crushed
spiraling
consciousness
limited
clinical
banned
eternal
grocery
podcast
vitam
dare
si
sust
tar
tldr
vag
##away
##lines
##ost
##eg
##hal
##utions
##areness
states
##ops
##urch
dies
ages
magn
##ciously
unst
unhealth
dislike
adop
urg
healing
supporting
role
incom
cheating
exciting
subc
tested
internal
sweating
occup
overdosing
##box
prepare
2021
discussion
celebrate
assignment
families
appointments
unhealthy
dated
dates
fate
names
pizz
ru
sam
##ai
##hn
##xual
thou
##orap
whil
mei
##iding
conditions
cars
span
club
wave
complex
wishes
cringe
apathy
burnt
swings
dreamies
sorts
beach
dropping
meaningful
affecting
ache
responsibilities
professionals
challeng
conclusion
##under
whilst
ded
fro
oxy
range
size
##uit
##you
##do
liver
shel
shad
shirt
alien
seat
cha
chair
##rap
unm
scan
sacri
design
inspir
heartbr
crushing
awareness
cheese
controlling
explan
speech
profess
grandpar
functional
torment
relaxed
repeated
green
element
benefits
creepy
susp
consistently
balance
america
participate
bullying
tunnel
bite
dom
iv
lur
row
tf
##ds
##stairs
whis
##arter
stool
peers
therefore
##ulting
proof
endure
clar
unp
attitude
slip
##eption
mins
skip
horrif
chocol
indu
drinks
reminds
improved
closing
former
2018
cardi
virt
practically
burned
permanently
appearance
performance
neighbor
##mission
paralyzed
zombie
aim
bone
hiv
il
jun
taught
tik
##encies
##icles
##asm
plag
agorap
##herbs
tempt
overweight
enem
prin
joined
familiar
slipping
sorrow
existential
seemingly
confl
fallen
laund
internship
##ification
grab
returned
colon
services
shooting
##ophren
frequent
divorced
manipulative
##ulsive
customer
disconnected
aid
aud
belt
cos
ge
mi
pink
sna
wis
wise
##sion
##yo
##ata
##eline
stim
##ased
##olved
happiest
yours
brut
ungr
kindness
crow
terribly
plane
longest
##ventil
distur
peacefully
board
smoked
improving
graduating
err
walls
dreading
virus
types
hyperventil
debil
relapse
##fillerfillerfillerfiller
ambul
betrayed
volunte
innoc
pizza
32
bug
fb
paul
tap
vot
wet
wild
##cul
##har
##xx
##utter
wheel
##thy
##cks
abt
selling
##artment
harsh
cogn
stret
waves
blo
compreh
impress
##action
##udes
tongue
runs
treats
explode
##azep
##onscious
walks
legal
##ggy
boat
connections
counter
leading
praying
presentation
recommended
lifetime
obsessed
combination
validation
dependent
diabet
laundry
ungrateful
ju
jaw
jumped
melt
meas
##old
##oia
##father
analy
toward
##edy
##itar
staff
sobbing
shat
##cho
alt
aspir
whose
overrea
spin
click
manic
gras
gramm
finds
compan
hopeful
quote
parties
resort
meanwhile
panicked
perce
excuses
remembering
messing
confusing
imagining
explaining
acqu
guns
potentially
include
repeating
replace
fantasy
logical
ghosted
wedding
identity
dysfunction
patients
thousand
thousands
pursue
masturb
defeated
sports
folks
counselling
primary
schizophren
medioc
tingling
material
adrenaline
chocolate
70
ct
ib
mic
mort
oce
yog
##ded
##ples
##inated
tow
theek
##etine
straw
pros
faced
brushing
worker
uncer
afterlife
blog
apps
thankfully
match
##why
slave
stays
excl
passes
##iction
choosing
muscles
irre
##gged
weakness
hahaha
mirt
milk
obsessive
document
feedback
required
uncont
mechanisms
american
##ropri
frankly
ambulance
uncertain
1st
length
mer
nick
sar
vs
##gl
##de
##atul
items
inability
youth
shr
noone
##rof
rehab
church
brown
spare
arr
army
drain
unkn
headed
##ageable
urges
##ysm
insan
crappy
horribly
adding
waited
reflect
engaged
graduation
demons
fantasize
punching
paranoia
ssris
consuming
separate
challenge
switched
witness
chapter
unstable
diabetes
overreact
ocean
theekween
uncontroll
bum
bang
eur
mig
rash
rule
yr
##aid
##ees
##iant
##iven
##ya
aneur
##esc
itll
##ows
##isible
liking
soo
abus
alarm
seiz
extern
review
heat
lasts
##agger
downvot
literal
healthcare
supple
complicated
##uded
incident
easiest
mornings
messy
drift
pays
##play
solutions
invisible
visual
midnight
acid
memes
starving
##tok
south
torn
relaxing
lifes
christian
streets
punish
privile
letters
typical
blanket
violence
applying
consumed
patience
##hhhhhhhhhhhhhhhhhhhhhhhhhhhhhhhhhhhhhhhhhhhhhhhhhhhhhhhhhhhhhhhhhhhhhhhhhhhhhhhhhhhhhhhhhhhhhhhhhhhhhhhhhhhhhhhhhhhhhhhhhhhhhhhh
raya
suffocating
machine
shelter
unmotivated
grandparents
debilitating
grammar
mirtaz
300
bod
evid
hun
peak
tag
##li
##bon
##ivers
##erat
##onal
##ato
##atically
##stop
##eases
beer
abroad
cher
overly
moms
intim
cliff
managing
monitor
disp
weekly
blown
resear
##ograph
surface
earn
substance
messaged
curl
deserved
treating
motivate
bothers
countries
indi
purch
retarded
amazon
lights
1000
isolating
judging
googled
replied
threatened
pounding
accomplished
meals
assignments
dissap
nails
congratul
##azepam
fish
gaming
hill
mour
miz
nodes
tension
##bro
##eve
##ja
##10
tol
##onom
##ancy
##otely
##eting
##kest
station
stig
stock
shown
##char
##fex
chores
heck
poem
bru
makeup
unpl
scra
persist
remotely
advent
restr
believing
excite
repair
driven
studied
calmed
positivity
delay
pression
refuses
winning
shotgun
##masherbs
injury
influ
lungs
camer
narcissistic
woken
aggressive
thelmasherbs
33
4th
bird
bike
du
dump
hmm
mri
node
rut
sel
##rel
##bar
##mer
##cl
##js
##hed
##elie
##aries
##verty
##icing
##illed
##opath
cance
##ural
##rolling
theyve
cond
poverty
##ilot
proceed
unint
guitar
released
downs
grind
blade
postp
partners
heartbeat
##acity
extended
cuts
security
regist
nerve
cops
angel
exhaustion
##holes
focusing
engage
successfully
fatal
2016
apologized
carrying
fantasies
surprise
brushed
dosage
original
unreal
explanation
##fexor
bond
dea
eve
equ
hint
ol
ring
rib
wide
##hear
##put
##onin
##orate
outl
section
##ateg
##atest
depth
##usi
bread
spit
acts
hoped
sinking
wherever
##anged
finishing
mindful
robot
flaw
flesh
sickness
collea
curse
dads
enjoyment
classmates
payche
foods
server
transition
artist
articles
overdosed
throwaway
embarrassment
powerful
tendencies
grey
attracted
location
scene
projects
film
vomiting
cases
dishes
confirmed
request
troubles
urgent
mirtazapine
core
dorm
eq
fade
hoo
kicking
pis
pic
ven
##kin
##hand
thick
##each
canada
outcome
exagger
reb
##uments
guid
twist
foster
##ugging
insign
##aaa
genetic
passive
assholes
psychotic
supported
obser
convincing
charge
2019
miracle
greatest
breakdowns
technically
photo
##oxetine
communication
loads
scenarios
roller
cudd
cuddle
buddy
agoraphobia
tempted
mediocre
yoga
migrain
cease
eight
fet
fian
hs
jap
lame
lbs
nope
tu
vote
##iable
##norm
##da
liqu
libid
ish
stone
storm
butt
##idc
##alu
##thusi
##essed
shak
reward
##eaded
intens
spark
cling
paint
adjust
download
blaming
hurry
##every
cramp
terror
flood
household
socializing
believes
##enses
submit
##umbling
enjoyable
horny
shortly
supervis
30s
effexor
acceptance
fasting
destined
trusted
triggering
auto
irritable
floating
grave
turkey
##board
achieved
mods
scheduled
##zzidc
behaviour
tightness
dragging
logically
football
consistent
relapsed
legitimately
spoken
##ruction
savings
factors
doomed
##ointing
application
introvert
daydreaming
oxygen
elementary
tiktok
innocent
unknown
mizzzidc
libido
bon
dust
hugged
mr
nons
pile
ripped
vicious
##cra
##gan
##easy
##ici
##iced
style
youll
youve
##ophobic
dizz
##ilos
whos
overs
mob
bruh
user
unex
coach
dismiss
acted
impending
consume
##apped
lesson
smaller
avo
statement
videog
retail
visited
cleaned
regrets
beats
argue
traveling
marks
envy
requires
shifts
reveal
violent
unlik
lymphoma
secretly
chemicals
platform
procrastinating
intelligent
determined
crawl
anonymous
junior
enemy
##ropriate
evidence
insignificant
cast
cath
dv
gam
gig
hon
lu
ling
ow
pra
pants
##gu
##ench
libr
##vert
sticking
##antly
##illah
abnorm
washing
outgoing
##urities
department
poop
plz
##nting
heroin
##ulty
##race
carbon
spect
john
unatt
harass
manageable
adam
attach
elses
bliss
scaring
contr
handful
chew
humor
holds
calif
strongly
numbers
retire
teaching
touching
sneak
##phones
patch
psychiatrists
showered
sends
developing
creating
hugs
interactions
cards
rapid
typically
insecurities
##oxide
shallow
identify
poisoning
politics
hundreds
assuming
negativity
german
pulse
academic
jerk
fml
##underst
##broken
fianc
dizziness
aching
bones
dance
lm
master
native
pair
tre
trem
yrs
zoom
##lim
##oe
##oh
##mark
##iate
##iagn
##pan
##wa
##erous
hav
ligh
stem
stability
##this
loan
donate
exch
reck
pool
plant
rights
##eries
strain
strict
twitch
hood
##acing
cursed
filling
visiting
amounts
sensations
responding
discou
grabbed
moderate
##ornia
encoun
verb
unsu
reduced
satisfied
assumed
alternative
flashback
automatically
housing
excessive
stimul
cognitive
aneurysm
stigma
##craft
california
38
75
ay
ak
cage
citalopram
ekg
ou
pas
rat
tin
tense
vivid
##ran
##ju
##power
##wor
##athing
##stal
ambit
##asing
sup
abusing
outs
##ammed
##roc
enthusi
##osure
diseases
downward
parac
suppress
heartbroken
handed
consent
deadline
kidney
fights
lows
##ucky
calming
disappointing
##onsciously
##bby
testing
indeed
sett
annivers
followers
forgetting
cunt
##ustral
grandfather
lacking
concerning
shoe
poorly
2017
creative
recovered
replaced
north
capacity
arguing
costs
traumatized
larger
hidden
passionate
clinic
suffers
coughing
rotting
dereal
gpa
karma
benzos
swimming
grasp
external
excitement
guidance
avoided
unattract
lighth
400
austral
cart
civ
fright
gum
gaining
km
kissed
oil
ren
sons
vill
##lbs
##sc
##rit
##mi
##ni
##hs
##pa
##ored
##str
##esium
hack
itchy
liar
stead
stole
##ida
##eph
loathing
##urning
##ationally
##olol
clu
nothingness
scrolling
cock
disag
parad
appears
recall
foggy
minds
loner
cheat
medicated
repres
apathetic
giant
skipping
motions
continu
ruins
shortness
indust
standard
settle
150
##easant
dumbass
meme
evalu
hahahaha
twitching
expressed
elev
included
emails
employee
creeping
relatives
meditate
official
correctly
washed
neighbors
switching
econom
ironic
##aaaaaaaaaaaaaaaaaaaaaaaaaaaaaaaa
woods
assistance
allergic
channel
hormones
manifest
magnesium
brutal
schizophrenia
paycheck
videogames
library
cab
dut
dumped
ego
ov
raz
wine
ye
##bow
##bble
##car
##gage
##gien
##jo
##hea
##erget
anhed
tom
##stit
##stic
##eties
inher
meat
##icate
hehe
hero
proced
moon
energet
pride
heading
score
adm
granted
blowing
compare
reasonable
mentality
precious
tone
horr
treatments
##ashed
distress
nearby
breaths
difficulty
acne
answered
affection
generalized
development
irritated
beside
preparing
grip
entertain
threatening
petty
ultimate
referred
crashed
coworker
acknowled
eternity
customers
fulfilling
ceiling
##etamol
hypochondriac
sustain
chaos
conflict
acquaint
indiffer
verbally
anniversary
5th
911
award
bos
code
ditch
data
named
owe
pap
piss
tatt
wkwkw
zon
##long
##gs
##gender
##ket
##hib
##ques
##eration
tour
toast
ham
##ision
lil
island
dozen
knee
##ends
depending
##olve
##ersonal
plain
brand
##osen
clich
trained
expenses
dism
stream
sincer
careful
contract
pharm
rob
failures
perpet
stresses
resting
beliefs
repet
drives
roommates
skill
horror
motor
##full
##mmmm
fixing
nah
hygien
transl
purpos
promot
crime
terminal
numerous
receiving
discussed
racist
hypoc
biological
occasional
route
recommendations
combat
snapch
suspect
pregnancy
casual
magic
facility
cousins
lifted
nuts
confirm
knocked
golden
introverted
tools
vibes
collapse
increasingly
heartbreak
disturbing
unpleasant
nonsense
paracetamol
represent
37
48
bb
iphone
jus
junk
rise
river
sau
##lets
##rum
toler
##atives
##omet
input
##idal
##thood
gosh
worn
neut
loosing
##ters
pocket
heres
##apy
##orted
uses
scri
guard
monoxide
adul
struct
grat
bleak
finances
misunderst
##achel
buried
decades
deciding
flor
flip
belief
cheers
lessons
girlfriends
##eee
visits
legally
signed
hotlines
corona
riding
homes
yellow
psychology
cries
crimin
fantastic
##olarship
obsessing
bearable
booked
denial
werent
##ounce
glasses
narcissist
asth
applications
climb
scratch
mountain
engineering
inconvenience
deteriorating
wisdom
##rofen
mobile
unexpected
abnormal
unattractive
lightheaded
energetic
cus
dp
dim
easter
fath
gap
hook
mate
nct
rin
tank
##ls
##uff
##fting
##yer
##elp
##eling
##itation
##isation
forest
stutter
sob
justify
##lying
##associ
##rier
shed
##ophobia
##aded
seed
##roid
rein
diarr
pog
sheer
anxieties
faces
veh
une
unne
trump
disaster
disassoci
##mental
##ivan
apple
phob
##ache
smiles
insist
advise
consult
restart
cheek
fearful
##ibiot
confusion
obst
instr
instance
emotionless
puppy
antibiot
counting
##uprofen
commitment
returning
delicious
moods
begins
relieve
starve
##mature
kicks
ranting
grace
involunt
pillow
blew
occasions
employer
accomplishment
vari
denied
stabil
freshman
inevit
spiritual
dancing
talented
unrel
percent
intelligence
culture
guarantee
technique
assaulted
frozen
sacrif
virtual
snapped
ibuprofen
congratulations
shaky
hygiene
adulthood
unnecess
5mg
aka
bul
dang
fading
ibs
merc
nu
pep
raining
um
##lies
##uish
##mart
##ipp
##ca
##ware
anj
##oring
thesis
lips
##very
ste
##opy
candy
myselfi
pee
imma
conven
##inder
plastic
mund
moves
backst
client
exper
relative
attending
gram
realistic
scholarship
firm
##ooo
panick
awa
existent
extrover
assess
psychosis
secure
instit
craving
sounded
dreamed
buspar
imagined
latest
forgiven
snack
boom
transport
transgender
valu
##tttt
suggestion
ignorant
error
pops
prayers
apparent
fourth
lifeless
temporarily
pleasant
##uuuu
clinically
unlike
nursing
label
characters
aspects
ambition
swallowing
separated
flying
individuals
intentionally
competition
electric
perception
lecture
basement
encouraging
abdominal
vitamin
repeatedly
insanely
overreacting
cancelled
mindfulness
anhedonia
tattoo
snapchat
asthma
ath
dressed
euth
iq
iam
kl
ken
lux
mv
national
rlly
rang
ted
tack
wra
##taining
##ng
##gues
##ji
##xa
##was
##ince
##oria
##icy
##idents
soph
##alt
##imp
##imes
loans
upcoming
dil
div
chasing
happily
beings
mold
spite
climate
joint
unit
offing
coz
##ours
sinus
compuls
finals
philos
minded
bud
illusion
suicides
matt
impul
flag
highest
greater
##weigh
fearing
basket
classroom
10mg
##quel
laughs
inferior
delusion
england
autop
tempting
showering
chatting
boredom
management
prayer
semi
described
sexuality
unbelie
bags
network
salt
odds
subjects
arrive
scient
tearing
immense
searched
objectively
initially
originally
occurred
bowel
obligated
status
rabies
##llllllll
unlovable
abdomen
molested
target
shadow
hyperventilating
bloody
shattered
prospect
europe
##ography
liquid
##iagnosed
neutral
vehicle
08
8th
ber
bomb
cro
dw
east
hence
jake
kit
nd
sought
wand
##len
##lord
##vant
##oon
##rant
##nit
##fit
##ham
##20
thri
ank
##orge
thee
whore
##lection
doors
forms
stealing
##reg
##alk
als
orange
allowing
outweigh
los
aswell
novel
noises
exce
exten
chase
overnight
ens
talents
areas
exposure
coinc
relev
lasting
##agging
jobless
blast
paras
hurtful
smarter
fails
##fective
flir
awww
completed
attacked
morbid
##ensitive
20mg
kidding
wondered
skipped
##quate
metal
trave
muslim
courses
##fficient
unique
acceptable
noticeable
drops
muster
detached
smooth
terrifies
voc
propran
efforts
2015
nonstop
doubts
recovering
modern
accompan
punished
views
garage
package
victory
increases
unemployment
reported
political
melan
tablets
blessed
##hydr
square
flowers
allergies
vaccine
darkest
##watch
abuser
punishment
researching
select
japan
australia
sincerely
diarrhea
phobia
mundane
philosoph
propranolol
36
6th
9th
ai
ain
bay
bio
faint
hm
hip
ja
kis
lor
mand
rice
rail
sane
yk
##laf
##tion
##iy
##dad
thor
##anut
##eli
##iser
ing
inade
steal
##lder
##illing
ativan
alle
##aud
##urable
noon
peanut
imbal
chosen
##acked
placed
##usions
provid
prote
spam
united
offers
scam
stubb
painting
streaming
blamed
medium
twent
partially
bubble
remote
compliment
mattered
honesty
plays
drivers
trial
bars
absor
controlled
laught
glo
sorta
follows
##axine
serve
##aneously
exercises
##prop
##ifications
yells
involve
entering
privacy
hypoth
linked
unconscious
crippled
salary
tracks
reassure
combined
minimal
unlucky
labor
debating
satisfaction
approaching
ironically
bowl
escaping
fleeting
ordinary
techniques
sabotage
fortunately
cigarettes
subconsciously
comprehend
purchase
unlikely
disagree
industry
florida
valuable
autopilot
stubborn
95
dum
dome
ell
file
ka
mt
mart
mothers
tm
trees
vain
##sd
##wich
##21
##inations
itch
inject
##lem
##ara
stared
fee
##antically
anyones
##rip
##amine
loom
noe
fuel
theyll
frag
depressant
##inds
helium
plate
agon
proven
prolong
mac
##alling
manner
monot
disres
monthly
comparing
undiagnosed
desires
phrase
opi
hearts
commer
guessing
genes
player
confide
drifting
##vial
rooms
skull
singing
##ifying
hangout
movement
damned
begun
openly
trail
traits
calcul
##ashion
catching
solace
images
nav
naive
cyn
importantly
contacted
distracting
float
sunny
spotify
roughly
millions
trips
entered
achievement
reactions
employment
appeared
laws
lawyer
insecurity
prevention
crossed
significantly
injured
spoiled
seasonal
initial
blurry
neglected
pedoph
veter
foreign
rabbit
##etamine
corpse
sanity
fortunate
cigarette
juice
uncertainty
camera
indifferent
repetitive
##lafaxine
protein
alex
dict
dwell
eup
fck
fashion
ic
lou
rh
sed
sides
ti
tie
##vation
##bur
##egr
##te
##gers
##jd
##yal
##hen
##pace
theory
##itled
##icip
femin
ship
west
outlet
asper
asian
##tering
nostal
someones
furious
concus
combo
dign
depersonal
chain
##oles
##xist
##istically
brick
needy
intend
spouse
anymorei
unus
trade
famous
##igate
downstairs
sleepless
##izes
##eme
##yss
appeal
illeg
slide
highway
mini
permission
preface
messaging
##umbled
eats
walmart
trivial
deserving
falls
begot
begged
halfway
mari
default
solo
solved
topics
deli
naked
reflection
boot
hyd
sero
answering
exception
minecraft
reminding
battery
prescribe
raw
2014
restlessness
degrees
estab
expressing
interacting
capital
spots
specialist
deleting
informed
verbal
surprising
centered
##yyyy
jealousy
organs
circles
sales
nurses
fatigued
celebrating
intellect
bouts
tricks
soooo
climbing
statistic
forehead
unloved
associate
hypochondria
wipe
incompet
##erature
adventure
colleagues
exchange
derealization
purposely
inevitably
sacrifice
euthan
relevant
twenties
laughter
0mg
bachel
cm
cod
eth
gent
hers
ko
nine
neph
pig
pump
piling
rick
rub
wealth
york
##lif
##oster
##ients
##cain
##cony
##fy
##kp
##kill
anore
##enn
inch
lip
feat
##irus
##ctions
upstairs
exec
willpower
fruit
french
conqu
plants
dehydr
##anda
##anded
##ulated
##raged
##herent
unim
uneasy
##alled
longing
strateg
sleeps
undes
underlying
poster
theirs
healed
phones
resc
accur
buprop
decline
smiled
mature
prem
childish
motion
eachother
choking
hospitals
##olution
tylen
anticip
facts
gradually
stands
trusting
homophobic
author
concert
judg
handsome
potato
screamed
popping
expression
silently
admitting
practicing
demon
cowardly
daughters
reacting
penis
ultras
deny
landed
landlord
essay
withdrawals
balcony
resource
dysph
texas
dearly
somedays
fundament
rushed
##onald
negatively
weighing
sandwich
generation
declined
hesitant
produce
browsing
vegetable
vague
adopted
designed
inspiration
professor
professors
suspicious
neighborhood
meltdown
spinning
dysfunctional
uncontrollably
intimacy
dispos
tolerate
unintention
flashbacks
script
structure
institution
nephew
tylenol
ultrasound
34
3am
bust
biz
dow
dirt
honey
hilar
kitten
om
por
pace
sque
vod
vast
xbox
##ov
##bling
##eh
##mes
##ield
##can
##cular
##fa
##fo
##ki
##help
##pic
##pass
##wr
##ini
##ater
##atisf
##stra
##elong
bee
belly
##iter
##etown
stairs
##ids
shap
abyss
##irm
knot
everyones
##ado
##urd
##ainted
upload
upvot
theyd
recip
immature
coma
plot
deed
brill
brink
veins
##uman
##umble
goodness
intimate
##osity
clown
usern
everythings
scroll
painfully
pointed
lee
blunt
contain
lethal
lethar
comeback
insp
impulsive
worthwhile
conserv
prev
weirdly
nerves
superfic
standards
upsetting
120
serot
reaches
hometown
promises
disappearing
25mg
irrele
subreddits
commented
quietly
apology
growth
colour
involves
includes
fluoxetine
respected
provided
docs
punched
centre
celexa
boost
limbo
referral
contributing
contemplated
survivor
masters
defeat
subscri
products
resentment
encouraged
clothing
guaranteed
thighs
introduced
intentions
induced
perceived
seizure
hunger
outlook
venlafaxine
clingy
tinnit
civil
procedure
acquaintances
sauce
pogba
unnecessary
experiment
unintentionally
squee
irrelevant
tinnitus
bism
erase
fits
gard
gang
jon
lin
mary
mdd
mcd
nit
pess
pian
rp
rushing
ties
ul
vice
xx
yu
yup
##la
##lin
##lux
##fly
##yr
##pons
##zine
##34
toy
##oul
##enger
##ators
##anch
##sth
##star
item
##omore
##isc
dop
stere
shith
shave
shalt
allergy
##urring
##rolled
dipl
depri
##xia
##uss
##ortion
spine
##osc
clon
usa
##intell
hateful
offended
guide
exposed
admin
##ables
struck
hardship
bland
##ival
beforehand
appealing
appropriate
##esth
worlds
resume
fold
healthier
supply
bubb
remaining
owner
sla
slump
hearted
flipped
##active
moral
surf
earning
generic
reput
listens
confessed
borrow
sucking
10th
absence
tragic
sounding
copy
calms
calories
typed
distr
defend
stepdad
explains
examples
visible
internally
figuring
traumas
reflux
curi
perfection
polite
swelling
raising
discl
twitpic
pale
replying
lifelong
behaviors
00b
feeding
accomplishments
penn
technology
infected
stabbing
obliv
priority
bald
facade
funds
sweaty
radio
groceries
ramad
ramble
halluc
wounds
associated
compassionate
boundaries
humiliated
digital
occupied
alienated
impression
supplements
cherry
persistent
restrict
influence
attachment
paradise
continuously
razor
tolerance
rinse
allevi
louis
dignity
establish
bupropion
hilarious
superficial
serotonin
pessim
##intellix
65
800
ga
gal
ht
han
ip
jk
mit
mam
mouse
ns
nas
oun
pi
pad
pier
pne
tele
tinder
vert
wits
yep
##rics
##ikes
##gia
##km
##did
##po
##19
##ancing
##eaper
lick
##ari
##arn
##arian
ongoing
##icial
steam
stores
sole
sooooo
##iments
abram
oral
outcast
##rol
reci
fridge
fraud
chunk
cheaper
poke
##olism
##acking
carried
mall
backed
backwards
unrea
headphones
offensive
scale
coke
keys
##ipe
dischar
reluct
reliable
litter
tail
##ionship
reasoning
resign
rolled
accused
accomm
insert
insensitive
slapped
crumbling
waters
advanced
handling
playlist
stupidity
absurd
choked
entitled
##ucks
##ointed
puke
laz
adds
president
counts
indo
purely
imaginary
infront
dawn
escal
alcoholism
polar
##neys
allows
embrace
##etheless
format
mentioning
simplest
nonetheless
powerless
apologies
tends
greet
obsession
50mg
involving
massage
fantasizing
dragged
psychologists
judgement
preferably
preferences
relatable
filter
reference
surrounding
screens
casually
manipulate
dental
ecg
swallowed
worsen
worsened
patterns
daydream
vibr
houses
demanding
sabotaging
forums
vitamins
challenging
crowded
stretch
aspirations
arrange
unrealistic
deaf
sneaker
##juana
ambitions
steady
criminal
reinfor
variety
pepper
luxury
delusional
domestic
looming
disrespect
depersonalization
marijuana
seroquel
incompetent
vodka
conservative
mcdonald
piano
diploma
curiosity
pneum
accommod
7th
bast
cities
eg
fow
gy
gorge
hed
kal
lam
mant
ng
pant
tel
www
weap
##rh
##uries
##cil
##di
##dul
##house
thx
thumb
##erb
##ene
##enching
##otine
##easing
bell
itd
##etically
whiny
##sexual
stems
##asia
abrupt
lover
##url
##endous
##rog
timeline
digging
pos
plug
overcoming
##istry
brit
needles
arch
artery
clicked
unwell
##owned
scum
shits
shitt
relent
##otherapy
lease
comprom
schoolwork
firear
twenty
remains
##tenance
untill
insulting
slim
slipped
biting
cram
interp
medicines
deadly
lists
classic
empathetic
absent
freezing
positively
diagnoses
hunting
meetings
sets
##rete
effectively
destruction
pushes
importance
corrupt
maintenance
defined
doub
irritating
concrete
creates
##itional
silver
fift
progressively
burns
vibe
detailed
racism
sticks
painlessly
qualities
qualify
employers
packed
protest
meditating
suspected
##ette
legitimate
##ouncing
victims
magically
safely
strive
radi
slitting
cbd
resistant
constr
spelling
eggs
challenges
dedicated
cardiologist
bodies
pisses
exaggerating
twisted
cuddling
migraine
cramps
elevated
antibiotics
mercy
panicky
ankle
excell
thorough
imbalance
euphor
illegal
hydro
strategies
dysphoria
brilliant
ramadan
pneumonia
600
aint
athe
bin
bise
echo
gc
hen
hired
lake
lash
mf
mich
mama
nam
ot
pow
pause
rly
rationally
sis
tang
wrap
##aking
##sle
##vity
##vote
##rite
##uous
##mal
##math
##iel
##ians
##cut
##fh
##fir
##free
##human
##word
toe
##ora
iti
##itiz
ofc
wher
amoe
##ication
##asms
##ille
##imm
##pple
outpatient
chip
hadnt
##olic
mucus
facial
beta
intended
prone
backp
ark
argh
nothings
expert
disor
discip
display
string
##agraph
idc
scheme
##bell
blink
paragraph
quarter
robbed
bucket
decides
decrea
decrease
oper
highlight
##udge
incons
deaths
##ensely
##vention
simult
passions
colleges
##quil
bury
entry
explod
supermark
defensive
defici
##place
##grad
darker
escitalopram
cyst
serving
harmful
wins
definition
babys
freely
offering
sunset
blocking
crushes
souls
tendency
spiraled
##iki
devil
approval
unfortunate
##hey
##yyy
beneficial
succeeded
uncond
logic
boxes
gaslight
seller
warmth
relapsing
smells
##rupted
organization
initi
fulfilled
invested
ghosting
haunted
confronted
benzo
counsell
##iiiiiiii
mocking
mocked
spanish
sacrific
errors
towel
uncontrollable
downvoted
privilege
##hhhhhhhhhhhhhhhhhhhhhhhhhhhhhhhhhhhhhhhhhhhhhhhhhhhhhhhhhhhhhhhhhhhhhhhhhhhhhhhhhhhhhhhhhhhhhhhhhhhhhhhhhhhhhhhhhhhhhhhhhhhhhhhhhhhhhhhhhhhhhhhhhhhhhhhhhhhhhhhhhhhhhhhhhhhhhhhhhhhhhhhhhhhhhhhhhhhhhhhhhhhhhhhhhhhhhhhhhhhhhhhhhhhhhhhhhhhhhhhhhhhhhhhhhhhhhhhh
birds
register
bonus
spectrum
germany
papers
dismissed
wrapped
sophomore
mattress
impulse
prospects
flirting
fragile
concussion
##caine
username
dopamine
stereot
gorgeous
fifteen
discipline
deficiency
baw
cerv
dit
era
erect
fiction
gue
ku
kay
mm
np
nan
nea
nation
ngl
oops
pics
races
tut
tiss
tub
tingly
vess
vap
wif
##afe
##occ
##bi
##eving
##mia
##cers
##nis
##nam
##god
##fw
##kind
##ht
##has
##point
##12
##aning
##step
##stand
italy
##itt
##utes
##utic
inapp
inhal
meh
##arre
##vering
stated
##alog
shred
##oped
alar
wore
##irts
knees
##adder
##odone
##odles
##urt
becu
##ryl
como
chu
sheets
##astically
prostit
drastic
joining
trad
scot
mania
cocaine
attribut
careers
##ccess
bleach
compar
scarred
couples
partly
recl
hiking
rolling
##ssss
bestie
remained
sites
opens
mentalhealth
fluct
aww
completing
permit
##weet
##irect
gods
listed
assure
assured
sket
barrel
payment
choke
##elled
freeze
checks
controls
disturb
boyfriends
india
indones
infin
##grade
david
convo
notices
epile
annoys
detect
values
popped
##tub
homelessness
cooked
loudly
covering
lifting
employed
biology
succeeding
recommendation
reassured
tastes
mildly
chemistry
stabbed
satisfy
critical
immensely
battles
amongst
##xyzine
clouds
##vision
insults
ruminating
nicotine
portion
shouting
crawling
##oooooooooooooooo
nyc
humiliation
orders
maxim
hesitate
subconscious
clarify
plagued
##fillerfillerfillerfillerfillerfillerfillerfiller
perceive
irrevers
supplement
equally
genetics
supervisor
lingering
rapidly
reckless
enthusiastic
cabin
unrelated
klon
##hamdul
travelling
agonizing
cynical
reciproc
bismillah
##oscopy
ounce
excellent
hydroxyzine
bisexual
simultaneously
fluctu
900
bday
ck
cer
crew
elder
fy
fans
gore
hugging
kr
ketamine
ostra
pt
pist
pms
roy
ramp
ringing
tan
tau
wid
wired
xxx
##liness
##vably
##ocial
##rate
##resh
##cs
##giving
##jb
##je
##jk
##24
##25
thirty
##iner
##inting
##ori
##orter
##eland
##esy
##omy
##oman
inches
liber
ont
stor
stal
##thr
shakes
##opin
sum
alert
alhamdul
knives
weve
##ami
sew
##ros
frame
conso
##eading
chills
wouldve
##arts
##ulate
agitated
careless
veg
vein
intensive
spill
##ciating
arre
armp
arrog
drastically
trend
offline
scold
coaster
discri
disney
painkill
ade
adol
leaf
compens
todays
phras
accum
remark
mates
slack
impl
##uding
sickening
minus
moron
surge
foundation
##mail
horse
10x
lessen
entr
##sites
sexy
##oids
diagnose
solitude
imagination
inviting
worthlessness
destiny
18th
cycles
##ptions
difficulties
weaker
resulted
stars
templ
addictive
goodbyes
2013
irres
irrit
processing
bathtub
creature
property
##thern
replay
bitches
grows
freaks
behave
shots
arguments
quotes
lyrics
mute
qualified
abandonment
romantically
tortured
blankets
2000
revol
surroundings
cracks
survivors
devastating
##ypical
objects
tablet
blessing
prisoner
alternatives
relying
scratched
escapism
websites
corporate
vaccinated
criticism
declining
podcasts
heartbreaking
lurking
lurker
horrific
volunteering
voting
measure
analyze
excluded
sarc
seizures
intimid
equal
migraines
tremor
havnt
discouraged
unsuccess
settled
village
promotion
basketball
unbelievably
inadequate
surprisingly
gentle
anorexia
bizarre
lethargic
atheist
disorient
nearest
4am
55
5am
aa
cpt
dot
fare
fades
gab
gna
gambling
ie
ii
kg
lap
luc
nagging
rig
rising
sized
wol
witch
yard
##sa
##vv
##oked
##rent
##bab
##uely
##tr
##men
##mic
##ift
##gular
##dled
##han
##hil
##pal
##psy
##with
##onic
##enced
##orse
##orable
##orrect
##orthy
##stone
##sters
##othing
beers
##omp
##eter
whining
ink
meg
##leg
forces
forbid
stol
albe
##irable
loyal
whatnot
dong
condom
cham
poll
##astr
demo
##uling
aged
##raz
overc
yourselves
branch
backs
##osh
arrest
cla
unful
killer
sco
aftermath
disreg
##eria
streak
elim
##best
bla
blat
blames
##ondon
fires
append
tak
taxi
reser
reset
resident
supplies
bestfriend
##hhhhh
decently
remorse
sits
sociopath
##when
bits
##ogether
flop
latter
##morph
hella
earned
simpl
##ictal
stupidly
kidneys
wonders
obtain
obese
instances
##ierd
redeem
##inks
swing
##ello
explore
antis
anguish
30am
irony
indian
bullies
numbing
stepped
stepping
solely
redditors
180
weights
refusing
refresh
calmly
snee
engaging
affirm
lightly
quicker
screams
ridden
connecting
19th
contacts
leader
babe
temperature
freel
2012
graph
achieving
holes
bottled
bottles
regards
burnout
hideous
device
risks
belongings
grieve
##ambles
drawn
##wwww
strangely
preventing
preferred
reassuring
depends
crossing
reports
poisoned
inflict
participating
gifted
magical
disabilities
pursuing
claims
competitive
fancy
##portant
journaling
insulted
lectur
productivity
nicer
nicely
software
##kkkkkkkk
vanish
leaning
adopt
princip
audio
errands
companies
privileged
rebu
rollerco
outsider
clubs
cliche
backstory
extroverted
tackle
budget
ensure
unusual
unimportant
upvotes
prevents
clonazepam
restrictions
unreason
reluctant
lamictal
amoeba
tissue
comparison
klonopin
console
arrested
irrespons
stolen
albeit
unfulfill
